unsigned char sine_model_quantized_tflite[] = {
  0x1c, 0x00, 0x00, 0x00, 0x54, 0x46, 0x4c, 0x33, 0x14, 0x00, 0x20, 0x00,
  0x1c, 0x00, 0x18, 0x00, 0x14, 0x00, 0x10, 0x00, 0x0c, 0x00, 0x00, 0x00,
  0x08, 0x00, 0x04, 0x00, 0x14, 0x00, 0x00, 0x00, 0x1c, 0x00, 0x00, 0x00,
  0x98, 0x00, 0x00, 0x00, 0xf0, 0x00, 0x00, 0x00, 0x14, 0x07, 0x00, 0x00,
  0x24, 0x07, 0x00, 0x00, 0x08, 0x0c, 0x00, 0x00, 0x03, 0x00, 0x00, 0x00,
  0x01, 0x00, 0x00, 0x00, 0x10, 0x00, 0x00, 0x00, 0x00, 0x00, 0x0a, 0x00,
  0x10, 0x00, 0x0c, 0x00, 0x08, 0x00, 0x04, 0x00, 0x0a, 0x00, 0x00, 0x00,
  0x0c, 0x00, 0x00, 0x00, 0x1c, 0x00, 0x00, 0x00, 0x3c, 0x00, 0x00, 0x00,
  0x0f, 0x00, 0x00, 0x00, 0x73, 0x65, 0x72, 0x76, 0x69, 0x6e, 0x67, 0x5f,
  0x64, 0x65, 0x66, 0x61, 0x75, 0x6c, 0x74, 0x00, 0x01, 0x00, 0x00, 0x00,
  0x04, 0x00, 0x00, 0x00, 0x90, 0xff, 0xff, 0xff, 0x09, 0x00, 0x00, 0x00,
  0x04, 0x00, 0x00, 0x00, 0x08, 0x00, 0x00, 0x00, 0x6f, 0x75, 0x74, 0x70,
  0x75, 0x74, 0x5f, 0x30, 0x00, 0x00, 0x00, 0x00, 0x01, 0x00, 0x00, 0x00,
  0x04, 0x00, 0x00, 0x00, 0xba, 0xf9, 0xff, 0xff, 0x04, 0x00, 0x00, 0x00,
  0x0e, 0x00, 0x00, 0x00, 0x6b, 0x65, 0x72, 0x61, 0x73, 0x5f, 0x74, 0x65,
  0x6e, 0x73, 0x6f, 0x72, 0x5f, 0x37, 0x00, 0x00, 0x02, 0x00, 0x00, 0x00,
  0x34, 0x00, 0x00, 0x00, 0x04, 0x00, 0x00, 0x00, 0xdc, 0xff, 0xff, 0xff,
  0x0c, 0x00, 0x00, 0x00, 0x04, 0x00, 0x00, 0x00, 0x13, 0x00, 0x00, 0x00,
  0x43, 0x4f, 0x4e, 0x56, 0x45, 0x52, 0x53, 0x49, 0x4f, 0x4e, 0x5f, 0x4d,
  0x45, 0x54, 0x41, 0x44, 0x41, 0x54, 0x41, 0x00, 0x08, 0x00, 0x0c, 0x00,
  0x08, 0x00, 0x04, 0x00, 0x08, 0x00, 0x00, 0x00, 0x0b, 0x00, 0x00, 0x00,
  0x04, 0x00, 0x00, 0x00, 0x13, 0x00, 0x00, 0x00, 0x6d, 0x69, 0x6e, 0x5f,
  0x72, 0x75, 0x6e, 0x74, 0x69, 0x6d, 0x65, 0x5f, 0x76, 0x65, 0x72, 0x73,
  0x69, 0x6f, 0x6e, 0x00, 0x0d, 0x00, 0x00, 0x00, 0x20, 0x06, 0x00, 0x00,
  0x18, 0x06, 0x00, 0x00, 0xc8, 0x05, 0x00, 0x00, 0xb0, 0x01, 0x00, 0x00,
  0x9c, 0x01, 0x00, 0x00, 0x4c, 0x01, 0x00, 0x00, 0xfc, 0x00, 0x00, 0x00,
  0xac, 0x00, 0x00, 0x00, 0xa4, 0x00, 0x00, 0x00, 0x9c, 0x00, 0x00, 0x00,
  0x94, 0x00, 0x00, 0x00, 0x74, 0x00, 0x00, 0x00, 0x04, 0x00, 0x00, 0x00,
  0x6a, 0xfa, 0xff, 0xff, 0x04, 0x00, 0x00, 0x00, 0x60, 0x00, 0x00, 0x00,
  0x0c, 0x00, 0x00, 0x00, 0x08, 0x00, 0x0e, 0x00, 0x08, 0x00, 0x04, 0x00,
  0x08, 0x00, 0x00, 0x00, 0x10, 0x00, 0x00, 0x00, 0x28, 0x00, 0x00, 0x00,
  0x00, 0x00, 0x06, 0x00, 0x08, 0x00, 0x04, 0x00, 0x06, 0x00, 0x00, 0x00,
  0x04, 0x00, 0x00, 0x00, 0x01, 0x00, 0x00, 0x00, 0xea, 0x03, 0x00, 0x00,
  0x0c, 0x00, 0x18, 0x00, 0x14, 0x00, 0x10, 0x00, 0x0c, 0x00, 0x04, 0x00,
  0x0c, 0x00, 0x00, 0x00, 0xec, 0xb7, 0xa8, 0x9a, 0xd0, 0xf4, 0x0a, 0xe3,
  0x02, 0x00, 0x00, 0x00, 0x02, 0x00, 0x00, 0x00, 0x04, 0x00, 0x00, 0x00,
  0x06, 0x00, 0x00, 0x00, 0x32, 0x2e, 0x31, 0x38, 0x2e, 0x30, 0x00, 0x00,
  0xd6, 0xfa, 0xff, 0xff, 0x04, 0x00, 0x00, 0x00, 0x10, 0x00, 0x00, 0x00,
  0x31, 0x2e, 0x35, 0x2e, 0x30, 0x00, 0x00, 0x00, 0x00, 0x00, 0x00, 0x00,
  0x00, 0x00, 0x00, 0x00, 0xd8, 0xf5, 0xff, 0xff, 0xdc, 0xf5, 0xff, 0xff,
  0xe0, 0xf5, 0xff, 0xff, 0xfe, 0xfa, 0xff, 0xff, 0x04, 0x00, 0x00, 0x00,
  0x40, 0x00, 0x00, 0x00, 0x36, 0xc6, 0xd0, 0xbe, 0x68, 0x93, 0x0a, 0xbe,
  0x42, 0x6d, 0xf1, 0xbe, 0xdc, 0x4b, 0x93, 0xbe, 0x9f, 0x87, 0x92, 0x3d,
  0x40, 0x04, 0xbd, 0xbc, 0x77, 0x0f, 0x5e, 0x3e, 0x40, 0xfc, 0xf6, 0xbe,
  0x31, 0xe9, 0xf3, 0x3d, 0x1a, 0xee, 0x42, 0x3e, 0xfd, 0x57, 0xb1, 0x3e,
  0x85, 0x34, 0x1a, 0x3f, 0x63, 0xcb, 0xc3, 0x3e, 0xc0, 0x15, 0x33, 0x3e,
  0x93, 0x43, 0x0a, 0xbf, 0xc6, 0x94, 0x86, 0xbe, 0x4a, 0xfb, 0xff, 0xff,
  0x04, 0x00, 0x00, 0x00, 0x40, 0x00, 0x00, 0x00, 0x00, 0x00, 0x00, 0x00,
  0x00, 0x00, 0x00, 0x00, 0x00, 0x00, 0x00, 0x00, 0x00, 0x00, 0x00, 0x00,
  0x3d, 0xb6, 0xaf, 0xbd, 0x00, 0x00, 0x00, 0x00, 0xa1, 0x4e, 0xdd, 0xbd,
  0x00, 0x00, 0x00, 0x00, 0x70, 0x7c, 0x33, 0xbe, 0x13, 0x0e, 0x09, 0x3e,
  0xbe, 0x89, 0x34, 0xbe, 0x6d, 0x17, 0x07, 0xbe, 0xe1, 0x1d, 0x19, 0x3e,
  0xef, 0xf6, 0x28, 0x3e, 0x00, 0x00, 0x00, 0x00, 0x00, 0x00, 0x00, 0x00,
  0x96, 0xfb, 0xff, 0xff, 0x04, 0x00, 0x00, 0x00, 0x40, 0x00, 0x00, 0x00,
  0xc6, 0x09, 0xcb, 0xbd, 0x00, 0x00, 0x00, 0x00, 0x00, 0x00, 0x00, 0x00,
  0xcc, 0x87, 0x22, 0xbe, 0xe4, 0x96, 0x12, 0x3e, 0x8f, 0x54, 0x2e, 0xbe,
  0xe4, 0x84, 0x67, 0x3d, 0x54, 0x32, 0x13, 0x3e, 0x78, 0xc0, 0x05, 0xbe,
  0xa7, 0x81, 0x3d, 0x3e, 0x1d, 0x48, 0xe4, 0x3d, 0x47, 0x34, 0x26, 0x3e,
  0x8c, 0x3d, 0x13, 0x3e, 0xa5, 0xed, 0x21, 0xbe, 0x00, 0x00, 0x00, 0x00,
  0x34, 0x9b, 0x06, 0x3e, 0xe2, 0xfb, 0xff, 0xff, 0x04, 0x00, 0x00, 0x00,
  0x04, 0x00, 0x00, 0x00, 0x93, 0x9b, 0x12, 0x3e, 0xf2, 0xfb, 0xff, 0xff,
  0x04, 0x00, 0x00, 0x00, 0x00, 0x04, 0x00, 0x00, 0xa0, 0xb9, 0x0e, 0xbc,
  0xc8, 0x15, 0xa6, 0xbd, 0x26, 0x26, 0x34, 0x3e, 0xc0, 0xb3, 0x9f, 0x3c,
  0x97, 0xd6, 0x89, 0x3e, 0x7c, 0x44, 0x9a, 0xbd, 0x74, 0xc9, 0xa8, 0x3e,
  0x50, 0x9f, 0x10, 0xbe, 0xcd, 0xe2, 0x1a, 0xbe, 0xb8, 0xd9, 0x68, 0xbe,
  0x0c, 0x1a, 0x18, 0x3c, 0xe1, 0xef, 0xb8, 0x3e, 0x9c, 0xb8, 0x42, 0xbe,
  0xe5, 0xab, 0x73, 0xbd, 0xce, 0x8a, 0x7b, 0x3e, 0x49, 0x18, 0xad, 0xbe,
  0xf3, 0x48, 0x82, 0x3e, 0xac, 0x4b, 0x50, 0xbe, 0xc0, 0x2b, 0x23, 0xbd,
  0xdb, 0xa9, 0xcb, 0x3e, 0x73, 0x91, 0x9b, 0xbe, 0x38, 0x82, 0x39, 0xbd,
  0x4c, 0x5c, 0xb7, 0xbe, 0xa6, 0x5f, 0xb1, 0xbe, 0xb0, 0x09, 0x2b, 0xbd,
  0xce, 0x0f, 0x7e, 0xbe, 0x9b, 0x26, 0xdc, 0x3e, 0xa9, 0xc7, 0x8c, 0x3e,
  0x91, 0x67, 0xb2, 0xbe, 0x5b, 0xe9, 0xa6, 0xbe, 0xb5, 0x74, 0xa7, 0x3e,
  0x50, 0x2c, 0x29, 0x3d, 0x78, 0x8c, 0x88, 0xbd, 0x14, 0x39, 0x23, 0xbe,
  0xa5, 0x19, 0xae, 0xbe, 0x5e, 0x99, 0x46, 0x3e, 0x6e, 0x33, 0x02, 0x3e,
  0x98, 0x9a, 0x85, 0xbd, 0x45, 0xca, 0x57, 0xbe, 0x7a, 0x0d, 0x0f, 0xbe,
  0x04, 0xdd, 0xd5, 0xbe, 0x35, 0xc3, 0x93, 0x3e, 0x29, 0x62, 0x67, 0xbe,
  0x35, 0x3e, 0xc3, 0x3e, 0x32, 0x88, 0xab, 0xbe, 0x52, 0xa0, 0xd1, 0xbe,
  0x16, 0x97, 0x1a, 0x3e, 0x5a, 0x2b, 0x93, 0xbe, 0xcd, 0x9e, 0xa9, 0x3e,
  0x92, 0xe1, 0x16, 0xbe, 0xa6, 0x6d, 0xd2, 0xbe, 0x82, 0x3f, 0xbe, 0xbe,
  0xd9, 0x9c, 0xe9, 0x3e, 0xb5, 0x36, 0xd7, 0xbe, 0x2c, 0xc7, 0x84, 0x3e,
  0xe0, 0x4e, 0x0e, 0xbe, 0x89, 0x78, 0x38, 0x3e, 0xc0, 0x48, 0xcd, 0x3e,
  0x39, 0xa4, 0x2b, 0x3e, 0x84, 0x03, 0x52, 0xbd, 0x31, 0x4c, 0x47, 0x3e,
  0x6f, 0x2a, 0x84, 0x3e, 0xb8, 0xd2, 0x31, 0xbd, 0xa2, 0xf6, 0x9a, 0xbe,
  0x5c, 0x5d, 0xcd, 0x3d, 0xed, 0x7f, 0x8b, 0x3e, 0x1d, 0xe8, 0xaf, 0x3e,
  0xac, 0x79, 0x95, 0x3d, 0xdc, 0x1a, 0x31, 0xbe, 0xde, 0x5c, 0x42, 0xbe,
  0x92, 0x84, 0x8e, 0xbe, 0x14, 0x06, 0xa0, 0x3d, 0x86, 0x9b, 0xa7, 0x3e,
  0x49, 0x2c, 0xaa, 0x3e, 0xfb, 0x26, 0xb1, 0x3e, 0xb2, 0xcb, 0x30, 0x3e,
  0x42, 0x41, 0x89, 0xbe, 0xad, 0xb9, 0xb4, 0x3e, 0xa8, 0xb2, 0x3b, 0x3d,
  0xe6, 0x8c, 0x29, 0xbe, 0x80, 0x39, 0x68, 0xbd, 0xaa, 0x92, 0x28, 0x3e,
  0xea, 0x35, 0xa1, 0xbe, 0xd1, 0x27, 0x85, 0x3e, 0x18, 0x37, 0x6c, 0xbe,
  0x50, 0x6c, 0x95, 0xbc, 0xfa, 0x4a, 0x09, 0xbd, 0x48, 0x1a, 0x89, 0xbd,
  0x8f, 0x73, 0xc2, 0xbe, 0x73, 0xcb, 0x8f, 0x3e, 0x52, 0xfb, 0xce, 0x3e,
  0x78, 0xfb, 0x04, 0x3e, 0x18, 0x71, 0xed, 0x3d, 0x5a, 0x30, 0x3e, 0x3e,
  0x14, 0xa9, 0xdb, 0xbd, 0xe3, 0xeb, 0xd5, 0x3e, 0xe0, 0x9f, 0x59, 0x3c,
  0xa4, 0x29, 0x07, 0xbe, 0xd8, 0x9a, 0xe9, 0xbd, 0x6f, 0x9d, 0xbf, 0x3e,
  0x0d, 0x55, 0xd8, 0x3e, 0xc8, 0x02, 0x8d, 0xbe, 0x89, 0x1b, 0xed, 0xbe,
  0x28, 0x3c, 0x0e, 0x3d, 0x36, 0x44, 0xf6, 0xbd, 0xb6, 0x4a, 0xbd, 0x3e,
  0x20, 0x5e, 0xfc, 0xbe, 0x8c, 0xdb, 0xb5, 0xbe, 0xd8, 0x12, 0x91, 0x3e,
  0xd6, 0x74, 0xbd, 0x3d, 0x66, 0xd1, 0x25, 0x3e, 0x84, 0x02, 0xce, 0xbd,
  0x59, 0x03, 0x98, 0x3e, 0x32, 0x46, 0xd6, 0xbe, 0x4f, 0xd4, 0xd6, 0x3e,
  0x7f, 0x9c, 0xa6, 0x3e, 0x74, 0x2f, 0xd8, 0xbe, 0xae, 0x5b, 0x8a, 0xbe,
  0xda, 0x89, 0xb0, 0x3e, 0xf6, 0x88, 0x1a, 0xbe, 0x26, 0xee, 0xf2, 0xbe,
  0x8a, 0xf6, 0x7d, 0x3e, 0xaf, 0xf3, 0xb4, 0xbe, 0x3e, 0x37, 0x22, 0x3e,
  0xff, 0x74, 0x47, 0x3e, 0x74, 0x67, 0xae, 0xbe, 0x34, 0xe1, 0x8a, 0x3d,
  0xf2, 0x39, 0x43, 0x3e, 0xf3, 0xd0, 0x95, 0xbe, 0x51, 0x56, 0xd6, 0x3e,
  0xa2, 0xd4, 0x6f, 0x3e, 0x28, 0xbf, 0x55, 0x3d, 0x69, 0x24, 0x87, 0x3d,
  0x24, 0xc0, 0x0a, 0xbe, 0x5b, 0xeb, 0xa3, 0xbe, 0x6a, 0xd1, 0x74, 0x3e,
  0x93, 0xc2, 0x2e, 0x3e, 0x09, 0x5c, 0x32, 0xbe, 0x4f, 0xfc, 0x25, 0x3e,
  0x92, 0x70, 0x5c, 0x3a, 0xb1, 0x4c, 0x93, 0x3e, 0xea, 0x43, 0x0b, 0x3d,
  0x1e, 0x71, 0xd8, 0xbe, 0x50, 0x67, 0xa4, 0x3c, 0x4e, 0x90, 0x29, 0x3e,
  0x5c, 0x44, 0xde, 0xbd, 0xbd, 0x46, 0x83, 0xbe, 0x69, 0x83, 0xb1, 0xbe,
  0xb4, 0x12, 0x8b, 0x3d, 0xf4, 0xb7, 0x8c, 0x3d, 0xaf, 0x63, 0xc0, 0xbc,
  0x00, 0x9a, 0x13, 0x3c, 0xa4, 0x1b, 0x66, 0xbe, 0x9f, 0xf0, 0x80, 0xbe,
  0x70, 0xcd, 0x7e, 0xbe, 0x7c, 0xbc, 0x89, 0xbd, 0x11, 0x0a, 0x12, 0x3e,
  0xde, 0x0f, 0xb4, 0x3e, 0x7c, 0x38, 0x50, 0xbe, 0x8d, 0x51, 0xd6, 0xbe,
  0xfb, 0x1b, 0xb0, 0x3e, 0x7f, 0x32, 0x89, 0x3e, 0x8a, 0x1e, 0xc7, 0xbe,
  0x48, 0x4e, 0x2e, 0xbe, 0x38, 0xde, 0xcd, 0x3b, 0x61, 0x21, 0xcc, 0xbe,
  0x60, 0x85, 0x3e, 0x3e, 0x5e, 0xe1, 0x5d, 0x3e, 0xc1, 0xbb, 0xa3, 0xbe,
  0x3f, 0x9d, 0xb3, 0x3d, 0x16, 0xd4, 0xfe, 0xbd, 0xb2, 0xc4, 0x0d, 0x3d,
  0x54, 0x49, 0xf6, 0x3d, 0xee, 0x25, 0x8d, 0x3e, 0x85, 0xed, 0xd6, 0x3e,
  0x58, 0x0e, 0xb5, 0xbe, 0x5a, 0xc2, 0x28, 0xbe, 0xb2, 0xb3, 0x4d, 0x3e,
  0x84, 0x74, 0x01, 0xbe, 0xdc, 0xe0, 0x9c, 0x3d, 0x28, 0x68, 0x6e, 0x3d,
  0x87, 0xa4, 0x3f, 0xbe, 0xc7, 0x9a, 0xdc, 0x3d, 0xe1, 0xf4, 0x8e, 0xbe,
  0xca, 0x8a, 0xc1, 0xbe, 0xbc, 0xaf, 0xf2, 0x3e, 0x19, 0x04, 0xe8, 0x3d,
  0xef, 0x49, 0xf2, 0xbe, 0x17, 0xe9, 0x8a, 0xbe, 0x7e, 0x75, 0x39, 0x3e,
  0x38, 0x69, 0x0a, 0x3d, 0x50, 0x3a, 0x84, 0x3c, 0x11, 0x76, 0x99, 0x3e,
  0x7c, 0xa1, 0x83, 0xbd, 0x19, 0x1e, 0x84, 0x3e, 0x74, 0xaf, 0x2c, 0xbe,
  0xfd, 0x02, 0x4b, 0x3e, 0x00, 0x35, 0xd8, 0x3a, 0x31, 0xa8, 0x70, 0x3c,
  0xa8, 0xca, 0x68, 0xbd, 0x1a, 0x54, 0xb6, 0xbe, 0xfe, 0x4d, 0x80, 0x3e,
  0x24, 0xd2, 0xa0, 0xbe, 0xcb, 0x78, 0xc9, 0xbd, 0x28, 0x50, 0x89, 0x3e,
  0x2e, 0xbf, 0xb6, 0x3e, 0xd4, 0x4c, 0xf9, 0xbd, 0x94, 0x57, 0xc2, 0x3d,
  0x74, 0x62, 0x44, 0xbe, 0xa5, 0x5b, 0xba, 0x3e, 0x21, 0x24, 0xba, 0x3e,
  0x26, 0x0e, 0x24, 0x3e, 0x4d, 0x9c, 0x00, 0xbe, 0x44, 0xb2, 0x8c, 0xbe,
  0x67, 0x64, 0xc4, 0x3e, 0xe5, 0x19, 0xcf, 0x3e, 0xdf, 0x13, 0x08, 0x3e,
  0x07, 0x78, 0xc2, 0xbe, 0xab, 0x06, 0xcf, 0x3e, 0x67, 0x42, 0xe0, 0x3e,
  0x48, 0x76, 0x91, 0xbe, 0x74, 0xb1, 0x25, 0x3e, 0xb8, 0x90, 0x4a, 0x3d,
  0x3e, 0xa8, 0x58, 0x3e, 0x8d, 0x0e, 0xa9, 0xbe, 0x83, 0x0b, 0x83, 0x3e,
  0x1c, 0x13, 0x91, 0x3d, 0x0e, 0x67, 0x2a, 0xbe, 0xaf, 0x61, 0x99, 0x3e,
  0x61, 0x94, 0xcb, 0xbe, 0x16, 0xf5, 0x8f, 0xbe, 0x64, 0x7c, 0xc2, 0x3d,
  0xf2, 0x40, 0x69, 0x3e, 0xa2, 0xbb, 0x29, 0xbe, 0x75, 0x6b, 0xa6, 0x3e,
  0x0e, 0xc4, 0x0c, 0x3e, 0xfa, 0x52, 0x9c, 0xbe, 0xa0, 0xe6, 0x8d, 0xbe,
  0x7e, 0xc0, 0x72, 0xbe, 0x92, 0x9b, 0x6f, 0x3e, 0xb5, 0xae, 0xdc, 0x3e,
  0x08, 0x3f, 0x91, 0xbe, 0x18, 0x5c, 0x04, 0x3d, 0xd9, 0xa3, 0xd3, 0x3e,
  0x96, 0xf2, 0x00, 0xbe, 0xab, 0xa2, 0xc6, 0x3e, 0x09, 0xb9, 0x06, 0xbf,
  0xf2, 0x5a, 0x8c, 0xbe, 0x78, 0x1c, 0x3c, 0xbe, 0xd7, 0xa4, 0x45, 0x3e,
  0x9e, 0x23, 0xdd, 0x3d, 0x0c, 0x28, 0xfb, 0xbe, 0xbb, 0xc5, 0xbc, 0x3e,
  0x0f, 0xcb, 0x65, 0xbe, 0x52, 0xe1, 0xac, 0xbe, 0x83, 0xc3, 0x8f, 0x3e,
  0x00, 0x00, 0x06, 0x00, 0x08, 0x00, 0x04, 0x00, 0x06, 0x00, 0x00, 0x00,
  0x04, 0x00, 0x00, 0x00, 0x40, 0x00, 0x00, 0x00, 0x26, 0x88, 0x26, 0xbf,
  0x44, 0xc7, 0x7b, 0xbe, 0x2c, 0xf6, 0xce, 0xbe, 0xf8, 0x10, 0x38, 0xbe,
  0x12, 0x6e, 0x07, 0x3f, 0x8f, 0xbe, 0x9d, 0xbe, 0x0d, 0x9a, 0x00, 0xbf,
  0xf2, 0xd8, 0x1d, 0x3f, 0xd6, 0x0a, 0xb4, 0xbe, 0x80, 0xad, 0x35, 0x3f,
  0x9d, 0x45, 0xa1, 0x3c, 0x16, 0xdd, 0x40, 0xbf, 0x95, 0x4c, 0x12, 0x3f,
  0x6f, 0x7d, 0x13, 0xbf, 0x34, 0x30, 0xd0, 0xbd, 0x78, 0x90, 0xd3, 0xbe,
  0x38, 0xfb, 0xff, 0xff, 0x3c, 0xfb, 0xff, 0xff, 0x0f, 0x00, 0x00, 0x00,
  0x4d, 0x4c, 0x49, 0x52, 0x20, 0x43, 0x6f, 0x6e, 0x76, 0x65, 0x72, 0x74,
  0x65, 0x64, 0x2e, 0x00, 0x01, 0x00, 0x00, 0x00, 0x14, 0x00, 0x00, 0x00,
  0x00, 0x00, 0x0e, 0x00, 0x18, 0x00, 0x14, 0x00, 0x10, 0x00, 0x0c, 0x00,
  0x08, 0x00, 0x04, 0x00, 0x0e, 0x00, 0x00, 0x00, 0x14, 0x00, 0x00, 0x00,
  0x1c, 0x00, 0x00, 0x00, 0xd8, 0x00, 0x00, 0x00, 0xdc, 0x00, 0x00, 0x00,
  0xe0, 0x00, 0x00, 0x00, 0x04, 0x00, 0x00, 0x00, 0x6d, 0x61, 0x69, 0x6e,
  0x00, 0x00, 0x00, 0x00, 0x03, 0x00, 0x00, 0x00, 0x80, 0x00, 0x00, 0x00,
  0x38, 0x00, 0x00, 0x00, 0x04, 0x00, 0x00, 0x00, 0x9a, 0xff, 0xff, 0xff,
  0x10, 0x00, 0x00, 0x00, 0x00, 0x00, 0x00, 0x08, 0x0c, 0x00, 0x00, 0x00,
  0x10, 0x00, 0x00, 0x00, 0xb4, 0xfb, 0xff, 0xff, 0x01, 0x00, 0x00, 0x00,
  0x09, 0x00, 0x00, 0x00, 0x03, 0x00, 0x00, 0x00, 0x08, 0x00, 0x00, 0x00,
  0x01, 0x00, 0x00, 0x00, 0x03, 0x00, 0x00, 0x00, 0xca, 0xff, 0xff, 0xff,
  0x10, 0x00, 0x00, 0x00, 0x00, 0x00, 0x00, 0x08, 0x10, 0x00, 0x00, 0x00,
  0x14, 0x00, 0x00, 0x00, 0xba, 0xff, 0xff, 0xff, 0x00, 0x00, 0x00, 0x01,
  0x01, 0x00, 0x00, 0x00, 0x08, 0x00, 0x00, 0x00, 0x03, 0x00, 0x00, 0x00,
  0x07, 0x00, 0x00, 0x00, 0x02, 0x00, 0x00, 0x00, 0x04, 0x00, 0x00, 0x00,
  0x00, 0x00, 0x0e, 0x00, 0x16, 0x00, 0x00, 0x00, 0x10, 0x00, 0x0c, 0x00,
  0x0b, 0x00, 0x04, 0x00, 0x0e, 0x00, 0x00, 0x00, 0x18, 0x00, 0x00, 0x00,
  0x00, 0x00, 0x00, 0x08, 0x18, 0x00, 0x00, 0x00, 0x1c, 0x00, 0x00, 0x00,
  0x00, 0x00, 0x06, 0x00, 0x08, 0x00, 0x07, 0x00, 0x06, 0x00, 0x00, 0x00,
  0x00, 0x00, 0x00, 0x01, 0x01, 0x00, 0x00, 0x00, 0x07, 0x00, 0x00, 0x00,
  0x03, 0x00, 0x00, 0x00, 0x00, 0x00, 0x00, 0x00, 0x06, 0x00, 0x00, 0x00,
  0x05, 0x00, 0x00, 0x00, 0x01, 0x00, 0x00, 0x00, 0x09, 0x00, 0x00, 0x00,
  0x01, 0x00, 0x00, 0x00, 0x00, 0x00, 0x00, 0x00, 0x0a, 0x00, 0x00, 0x00,
  0x74, 0x03, 0x00, 0x00, 0x1c, 0x03, 0x00, 0x00, 0xc4, 0x02, 0x00, 0x00,
  0x88, 0x02, 0x00, 0x00, 0x4c, 0x02, 0x00, 0x00, 0xf0, 0x01, 0x00, 0x00,
  0xa0, 0x01, 0x00, 0x00, 0x00, 0x01, 0x00, 0x00, 0x60, 0x00, 0x00, 0x00,
  0x04, 0x00, 0x00, 0x00, 0xca, 0xfc, 0xff, 0xff, 0x00, 0x00, 0x00, 0x01,
  0x14, 0x00, 0x00, 0x00, 0x1c, 0x00, 0x00, 0x00, 0x1c, 0x00, 0x00, 0x00,
  0x0a, 0x00, 0x00, 0x00, 0x34, 0x00, 0x00, 0x00, 0x02, 0x00, 0x00, 0x00,
  0xff, 0xff, 0xff, 0xff, 0x01, 0x00, 0x00, 0x00, 0xb4, 0xfc, 0xff, 0xff,
  0x1b, 0x00, 0x00, 0x00, 0x53, 0x74, 0x61, 0x74, 0x65, 0x66, 0x75, 0x6c,
  0x50, 0x61, 0x72, 0x74, 0x69, 0x74, 0x69, 0x6f, 0x6e, 0x65, 0x64, 0x43,
  0x61, 0x6c, 0x6c, 0x5f, 0x31, 0x3a, 0x30, 0x00, 0x02, 0x00, 0x00, 0x00,
  0x01, 0x00, 0x00, 0x00, 0x01, 0x00, 0x00, 0x00, 0x22, 0xfd, 0xff, 0xff,
  0x00, 0x00, 0x00, 0x01, 0x14, 0x00, 0x00, 0x00, 0x1c, 0x00, 0x00, 0x00,
  0x1c, 0x00, 0x00, 0x00, 0x09, 0x00, 0x00, 0x00, 0x78, 0x00, 0x00, 0x00,
  0x02, 0x00, 0x00, 0x00, 0xff, 0xff, 0xff, 0xff, 0x10, 0x00, 0x00, 0x00,
  0x0c, 0xfd, 0xff, 0xff, 0x5e, 0x00, 0x00, 0x00, 0x73, 0x65, 0x71, 0x75,
  0x65, 0x6e, 0x74, 0x69, 0x61, 0x6c, 0x5f, 0x31, 0x5f, 0x31, 0x2f, 0x64,
  0x65, 0x6e, 0x73, 0x65, 0x5f, 0x34, 0x5f, 0x31, 0x2f, 0x4d, 0x61, 0x74,
  0x4d, 0x75, 0x6c, 0x3b, 0x73, 0x65, 0x71, 0x75, 0x65, 0x6e, 0x74, 0x69,
  0x61, 0x6c, 0x5f, 0x31, 0x5f, 0x31, 0x2f, 0x64, 0x65, 0x6e, 0x73, 0x65,
  0x5f, 0x34, 0x5f, 0x31, 0x2f, 0x52, 0x65, 0x6c, 0x75, 0x3b, 0x73, 0x65,
  0x71, 0x75, 0x65, 0x6e, 0x74, 0x69, 0x61, 0x6c, 0x5f, 0x31, 0x5f, 0x31,
  0x2f, 0x64, 0x65, 0x6e, 0x73, 0x65, 0x5f, 0x34, 0x5f, 0x31, 0x2f, 0x42,
  0x69, 0x61, 0x73, 0x41, 0x64, 0x64, 0x00, 0x00, 0x02, 0x00, 0x00, 0x00,
  0x01, 0x00, 0x00, 0x00, 0x10, 0x00, 0x00, 0x00, 0xbe, 0xfd, 0xff, 0xff,
  0x00, 0x00, 0x00, 0x01, 0x14, 0x00, 0x00, 0x00, 0x1c, 0x00, 0x00, 0x00,
  0x1c, 0x00, 0x00, 0x00, 0x08, 0x00, 0x00, 0x00, 0x78, 0x00, 0x00, 0x00,
  0x02, 0x00, 0x00, 0x00, 0xff, 0xff, 0xff, 0xff, 0x10, 0x00, 0x00, 0x00,
  0xa8, 0xfd, 0xff, 0xff, 0x5e, 0x00, 0x00, 0x00, 0x73, 0x65, 0x71, 0x75,
  0x65, 0x6e, 0x74, 0x69, 0x61, 0x6c, 0x5f, 0x31, 0x5f, 0x31, 0x2f, 0x64,
  0x65, 0x6e, 0x73, 0x65, 0x5f, 0x33, 0x5f, 0x31, 0x2f, 0x4d, 0x61, 0x74,
  0x4d, 0x75, 0x6c, 0x3b, 0x73, 0x65, 0x71, 0x75, 0x65, 0x6e, 0x74, 0x69,
  0x61, 0x6c, 0x5f, 0x31, 0x5f, 0x31, 0x2f, 0x64, 0x65, 0x6e, 0x73, 0x65,
  0x5f, 0x33, 0x5f, 0x31, 0x2f, 0x52, 0x65, 0x6c, 0x75, 0x3b, 0x73, 0x65,
  0x71, 0x75, 0x65, 0x6e, 0x74, 0x69, 0x61, 0x6c, 0x5f, 0x31, 0x5f, 0x31,
  0x2f, 0x64, 0x65, 0x6e, 0x73, 0x65, 0x5f, 0x33, 0x5f, 0x31, 0x2f, 0x42,
  0x69, 0x61, 0x73, 0x41, 0x64, 0x64, 0x00, 0x00, 0x02, 0x00, 0x00, 0x00,
  0x01, 0x00, 0x00, 0x00, 0x10, 0x00, 0x00, 0x00, 0xae, 0xfe, 0xff, 0xff,
  0x00, 0x00, 0x00, 0x01, 0x10, 0x00, 0x00, 0x00, 0x10, 0x00, 0x00, 0x00,
  0x07, 0x00, 0x00, 0x00, 0x2c, 0x00, 0x00, 0x00, 0x34, 0xfe, 0xff, 0xff,
  0x1f, 0x00, 0x00, 0x00, 0x73, 0x65, 0x71, 0x75, 0x65, 0x6e, 0x74, 0x69,
  0x61, 0x6c, 0x5f, 0x31, 0x5f, 0x31, 0x2f, 0x64, 0x65, 0x6e, 0x73, 0x65,
  0x5f, 0x33, 0x5f, 0x31, 0x2f, 0x4d, 0x61, 0x74, 0x4d, 0x75, 0x6c, 0x00,
  0x02, 0x00, 0x00, 0x00, 0x10, 0x00, 0x00, 0x00, 0x01, 0x00, 0x00, 0x00,
  0xfa, 0xfe, 0xff, 0xff, 0x00, 0x00, 0x00, 0x01, 0x10, 0x00, 0x00, 0x00,
  0x10, 0x00, 0x00, 0x00, 0x06, 0x00, 0x00, 0x00, 0x3c, 0x00, 0x00, 0x00,
  0x80, 0xfe, 0xff, 0xff, 0x2f, 0x00, 0x00, 0x00, 0x73, 0x65, 0x71, 0x75,
  0x65, 0x6e, 0x74, 0x69, 0x61, 0x6c, 0x5f, 0x31, 0x5f, 0x31, 0x2f, 0x64,
  0x65, 0x6e, 0x73, 0x65, 0x5f, 0x33, 0x5f, 0x31, 0x2f, 0x42, 0x69, 0x61,
  0x73, 0x41, 0x64, 0x64, 0x2f, 0x52, 0x65, 0x61, 0x64, 0x56, 0x61, 0x72,
  0x69, 0x61, 0x62, 0x6c, 0x65, 0x4f, 0x70, 0x00, 0x01, 0x00, 0x00, 0x00,
  0x10, 0x00, 0x00, 0x00, 0x52, 0xff, 0xff, 0xff, 0x00, 0x00, 0x00, 0x01,
  0x10, 0x00, 0x00, 0x00, 0x10, 0x00, 0x00, 0x00, 0x05, 0x00, 0x00, 0x00,
  0x1c, 0x00, 0x00, 0x00, 0xd8, 0xfe, 0xff, 0xff, 0x0f, 0x00, 0x00, 0x00,
  0x61, 0x72, 0x69, 0x74, 0x68, 0x2e, 0x63, 0x6f, 0x6e, 0x73, 0x74, 0x61,
  0x6e, 0x74, 0x33, 0x00, 0x01, 0x00, 0x00, 0x00, 0x10, 0x00, 0x00, 0x00,
  0x8a, 0xff, 0xff, 0xff, 0x00, 0x00, 0x00, 0x01, 0x10, 0x00, 0x00, 0x00,
  0x10, 0x00, 0x00, 0x00, 0x04, 0x00, 0x00, 0x00, 0x1c, 0x00, 0x00, 0x00,
  0x10, 0xff, 0xff, 0xff, 0x0f, 0x00, 0x00, 0x00, 0x61, 0x72, 0x69, 0x74,
  0x68, 0x2e, 0x63, 0x6f, 0x6e, 0x73, 0x74, 0x61, 0x6e, 0x74, 0x32, 0x00,
  0x01, 0x00, 0x00, 0x00, 0x01, 0x00, 0x00, 0x00, 0xc2, 0xff, 0xff, 0xff,
  0x00, 0x00, 0x00, 0x01, 0x10, 0x00, 0x00, 0x00, 0x10, 0x00, 0x00, 0x00,
  0x03, 0x00, 0x00, 0x00, 0x1c, 0x00, 0x00, 0x00, 0x48, 0xff, 0xff, 0xff,
  0x0f, 0x00, 0x00, 0x00, 0x61, 0x72, 0x69, 0x74, 0x68, 0x2e, 0x63, 0x6f,
  0x6e, 0x73, 0x74, 0x61, 0x6e, 0x74, 0x31, 0x00, 0x02, 0x00, 0x00, 0x00,
  0x10, 0x00, 0x00, 0x00, 0x10, 0x00, 0x00, 0x00, 0x00, 0x00, 0x16, 0x00,
  0x18, 0x00, 0x14, 0x00, 0x00, 0x00, 0x10, 0x00, 0x0c, 0x00, 0x08, 0x00,
  0x00, 0x00, 0x00, 0x00, 0x00, 0x00, 0x07, 0x00, 0x16, 0x00, 0x00, 0x00,
  0x00, 0x00, 0x00, 0x01, 0x10, 0x00, 0x00, 0x00, 0x10, 0x00, 0x00, 0x00,
  0x02, 0x00, 0x00, 0x00, 0x1c, 0x00, 0x00, 0x00, 0x9c, 0xff, 0xff, 0xff,
  0x0e, 0x00, 0x00, 0x00, 0x61, 0x72, 0x69, 0x74, 0x68, 0x2e, 0x63, 0x6f,
  0x6e, 0x73, 0x74, 0x61, 0x6e, 0x74, 0x00, 0x00, 0x02, 0x00, 0x00, 0x00,
  0x01, 0x00, 0x00, 0x00, 0x10, 0x00, 0x00, 0x00, 0x00, 0x00, 0x16, 0x00,
  0x1c, 0x00, 0x18, 0x00, 0x00, 0x00, 0x14, 0x00, 0x10, 0x00, 0x0c, 0x00,
  0x00, 0x00, 0x00, 0x00, 0x08, 0x00, 0x07, 0x00, 0x16, 0x00, 0x00, 0x00,
  0x00, 0x00, 0x00, 0x01, 0x14, 0x00, 0x00, 0x00, 0x20, 0x00, 0x00, 0x00,
  0x20, 0x00, 0x00, 0x00, 0x01, 0x00, 0x00, 0x00, 0x40, 0x00, 0x00, 0x00,
  0x02, 0x00, 0x00, 0x00, 0xff, 0xff, 0xff, 0xff, 0x01, 0x00, 0x00, 0x00,
  0x04, 0x00, 0x04, 0x00, 0x04, 0x00, 0x00, 0x00, 0x20, 0x00, 0x00, 0x00,
  0x73, 0x65, 0x72, 0x76, 0x69, 0x6e, 0x67, 0x5f, 0x64, 0x65, 0x66, 0x61,
  0x75, 0x6c, 0x74, 0x5f, 0x6b, 0x65, 0x72, 0x61, 0x73, 0x5f, 0x74, 0x65,
  0x6e, 0x73, 0x6f, 0x72, 0x5f, 0x37, 0x3a, 0x30, 0x00, 0x00, 0x00, 0x00,
  0x02, 0x00, 0x00, 0x00, 0x01, 0x00, 0x00, 0x00, 0x01, 0x00, 0x00, 0x00,
  0x01, 0x00, 0x00, 0x00, 0x10, 0x00, 0x00, 0x00, 0x0c, 0x00, 0x0c, 0x00,
  0x0b, 0x00, 0x00, 0x00, 0x00, 0x00, 0x04, 0x00, 0x0c, 0x00, 0x00, 0x00,
  0x09, 0x00, 0x00, 0x00, 0x00, 0x00, 0x00, 0x09
};
unsigned int sine_model_quantized_tflite_len = 3164;
